const unsigned char anomaly_model_tflite[] = {
  0x1c, 0x00, 0x00, 0x00, 0x54, 0x46, 0x4c, 0x33, 0x14, 0x00, 0x20, 0x00,
  0x1c, 0x00, 0x18, 0x00, 0x14, 0x00, 0x10, 0x00, 0x0c, 0x00, 0x00, 0x00,
  0x08, 0x00, 0x04, 0x00, 0x14, 0x00, 0x00, 0x00, 0x1c, 0x00, 0x00, 0x00,
  0x8c, 0x00, 0x00, 0x00, 0xe4, 0x00, 0x00, 0x00, 0x50, 0x05, 0x00, 0x00,
  0x60, 0x05, 0x00, 0x00, 0xf4, 0x0a, 0x00, 0x00, 0x03, 0x00, 0x00, 0x00,
  0x01, 0x00, 0x00, 0x00, 0x04, 0x00, 0x00, 0x00, 0x62, 0xfa, 0xff, 0xff,
  0x0c, 0x00, 0x00, 0x00, 0x1c, 0x00, 0x00, 0x00, 0x3c, 0x00, 0x00, 0x00,
  0x0f, 0x00, 0x00, 0x00, 0x73, 0x65, 0x72, 0x76, 0x69, 0x6e, 0x67, 0x5f,
  0x64, 0x65, 0x66, 0x61, 0x75, 0x6c, 0x74, 0x00, 0x01, 0x00, 0x00, 0x00,
  0x04, 0x00, 0x00, 0x00, 0x90, 0xff, 0xff, 0xff, 0x0a, 0x00, 0x00, 0x00,
  0x04, 0x00, 0x00, 0x00, 0x08, 0x00, 0x00, 0x00, 0x6f, 0x75, 0x74, 0x70,
  0x75, 0x74, 0x5f, 0x30, 0x00, 0x00, 0x00, 0x00, 0x01, 0x00, 0x00, 0x00,
  0x04, 0x00, 0x00, 0x00, 0x52, 0xfb, 0xff, 0xff, 0x04, 0x00, 0x00, 0x00,
  0x0e, 0x00, 0x00, 0x00, 0x6b, 0x65, 0x72, 0x61, 0x73, 0x5f, 0x74, 0x65,
  0x6e, 0x73, 0x6f, 0x72, 0x5f, 0x35, 0x00, 0x00, 0x02, 0x00, 0x00, 0x00,
  0x34, 0x00, 0x00, 0x00, 0x04, 0x00, 0x00, 0x00, 0xdc, 0xff, 0xff, 0xff,
  0x0d, 0x00, 0x00, 0x00, 0x04, 0x00, 0x00, 0x00, 0x13, 0x00, 0x00, 0x00,
  0x43, 0x4f, 0x4e, 0x56, 0x45, 0x52, 0x53, 0x49, 0x4f, 0x4e, 0x5f, 0x4d,
  0x45, 0x54, 0x41, 0x44, 0x41, 0x54, 0x41, 0x00, 0x08, 0x00, 0x0c, 0x00,
  0x08, 0x00, 0x04, 0x00, 0x08, 0x00, 0x00, 0x00, 0x0c, 0x00, 0x00, 0x00,
  0x04, 0x00, 0x00, 0x00, 0x13, 0x00, 0x00, 0x00, 0x6d, 0x69, 0x6e, 0x5f,
  0x72, 0x75, 0x6e, 0x74, 0x69, 0x6d, 0x65, 0x5f, 0x76, 0x65, 0x72, 0x73,
  0x69, 0x6f, 0x6e, 0x00, 0x0e, 0x00, 0x00, 0x00, 0x68, 0x04, 0x00, 0x00,
  0x60, 0x04, 0x00, 0x00, 0x30, 0x04, 0x00, 0x00, 0x18, 0x02, 0x00, 0x00,
  0x04, 0x02, 0x00, 0x00, 0xd4, 0x01, 0x00, 0x00, 0x84, 0x01, 0x00, 0x00,
  0xb4, 0x00, 0x00, 0x00, 0xac, 0x00, 0x00, 0x00, 0xa4, 0x00, 0x00, 0x00,
  0x9c, 0x00, 0x00, 0x00, 0x94, 0x00, 0x00, 0x00, 0x74, 0x00, 0x00, 0x00,
  0x04, 0x00, 0x00, 0x00, 0x06, 0xfc, 0xff, 0xff, 0x04, 0x00, 0x00, 0x00,
  0x60, 0x00, 0x00, 0x00, 0x10, 0x00, 0x00, 0x00, 0x00, 0x00, 0x00, 0x00,
  0x08, 0x00, 0x0e, 0x00, 0x08, 0x00, 0x04, 0x00, 0x08, 0x00, 0x00, 0x00,
  0x10, 0x00, 0x00, 0x00, 0x24, 0x00, 0x00, 0x00, 0x00, 0x00, 0x06, 0x00,
  0x08, 0x00, 0x04, 0x00, 0x06, 0x00, 0x00, 0x00, 0x04, 0x00, 0x00, 0x00,
  0x00, 0x00, 0x00, 0x00, 0x0c, 0x00, 0x18, 0x00, 0x14, 0x00, 0x10, 0x00,
  0x0c, 0x00, 0x04, 0x00, 0x0c, 0x00, 0x00, 0x00, 0x6f, 0x34, 0xb4, 0xe6,
  0xbc, 0x5c, 0xfe, 0x7b, 0x02, 0x00, 0x00, 0x00, 0x02, 0x00, 0x00, 0x00,
  0x04, 0x00, 0x00, 0x00, 0x06, 0x00, 0x00, 0x00, 0x32, 0x2e, 0x31, 0x39,
  0x2e, 0x30, 0x00, 0x00, 0x72, 0xfc, 0xff, 0xff, 0x04, 0x00, 0x00, 0x00,
  0x10, 0x00, 0x00, 0x00, 0x31, 0x2e, 0x31, 0x34, 0x2e, 0x30, 0x00, 0x00,
  0x00, 0x00, 0x00, 0x00, 0x00, 0x00, 0x00, 0x00, 0xe4, 0xf6, 0xff, 0xff,
  0xe8, 0xf6, 0xff, 0xff, 0xec, 0xf6, 0xff, 0xff, 0xf0, 0xf6, 0xff, 0xff,
  0x9e, 0xfc, 0xff, 0xff, 0x04, 0x00, 0x00, 0x00, 0xc0, 0x00, 0x00, 0x00,
  0x37, 0x59, 0x0b, 0xc0, 0x86, 0xfe, 0xd2, 0xbe, 0x17, 0xa9, 0xdb, 0x3e,
  0x8e, 0xb0, 0x87, 0x3e, 0xc1, 0x94, 0x06, 0xbf, 0x2d, 0xf4, 0x81, 0xbe,
  0xfe, 0xc0, 0x5a, 0x3f, 0x7a, 0x15, 0xc4, 0x3f, 0x79, 0x1c, 0x7c, 0xbf,
  0x03, 0x48, 0xd5, 0xbe, 0xcc, 0xd4, 0x47, 0xbe, 0x4f, 0x8e, 0x04, 0xbf,
  0x10, 0x31, 0x80, 0x3f, 0xe2, 0x88, 0xb4, 0x3f, 0x0f, 0xe8, 0x07, 0xbf,
  0xd8, 0x11, 0xf6, 0xbf, 0xce, 0xcb, 0x19, 0xbe, 0xb2, 0x3e, 0x99, 0xbe,
  0x73, 0xe0, 0x1c, 0xbe, 0xf1, 0xc5, 0x4d, 0xbe, 0x37, 0x08, 0x85, 0x3c,
  0xc3, 0x34, 0x25, 0x40, 0xc5, 0xa0, 0x21, 0x3f, 0x94, 0xfc, 0x92, 0x3e,
  0x75, 0x12, 0x10, 0xc0, 0x2c, 0x0a, 0x54, 0xbf, 0x13, 0x95, 0xa0, 0x3e,
  0x1b, 0x1f, 0xd4, 0x3f, 0xc5, 0x3a, 0x81, 0x3f, 0x55, 0x43, 0xa1, 0x3e,
  0x5b, 0xba, 0xc0, 0x3f, 0xc9, 0x0d, 0xcd, 0x3f, 0xcd, 0x91, 0x00, 0xc0,
  0x43, 0x10, 0xd2, 0xbe, 0xbe, 0xa5, 0xbc, 0xbe, 0x34, 0x29, 0xbe, 0xbe,
  0xf9, 0x9e, 0x8a, 0xbf, 0xf0, 0x1f, 0x6b, 0xbe, 0xe8, 0x0a, 0x8f, 0x3e,
  0x10, 0x7a, 0xf1, 0xbf, 0x38, 0xcb, 0xa4, 0xbd, 0xdb, 0xbf, 0xa2, 0x3e,
  0x93, 0x71, 0x1d, 0x40, 0xd8, 0xf7, 0x81, 0x3e, 0x3a, 0x98, 0x35, 0x3f,
  0x65, 0xa6, 0x1a, 0x40, 0xe9, 0xec, 0x0f, 0x3f, 0xdf, 0x11, 0x1f, 0x3f,
  0x6a, 0xfd, 0xff, 0xff, 0x04, 0x00, 0x00, 0x00, 0x40, 0x00, 0x00, 0x00,
  0x2a, 0x04, 0xe9, 0x3e, 0x00, 0x00, 0x00, 0x00, 0x98, 0xda, 0x6b, 0x3f,
  0x00, 0x00, 0x00, 0x00, 0x6c, 0xf4, 0xf2, 0x3e, 0xe3, 0xff, 0x04, 0x3f,
  0x0d, 0xd3, 0xcf, 0xbc, 0x3e, 0x5b, 0xa1, 0x3a, 0x95, 0x9b, 0x8b, 0x3e,
  0xda, 0x35, 0x1c, 0xbb, 0xac, 0x30, 0x43, 0x3f, 0x00, 0x00, 0x00, 0x00,
  0xac, 0x47, 0xb9, 0x3e, 0x99, 0x14, 0xc5, 0x3e, 0x75, 0x45, 0xb4, 0x3d,
  0xfb, 0x09, 0x6c, 0xbd, 0xb6, 0xfd, 0xff, 0xff, 0x04, 0x00, 0x00, 0x00,
  0x20, 0x00, 0x00, 0x00, 0x7e, 0x06, 0xa3, 0xbc, 0x9f, 0xa1, 0xe4, 0x3e,
  0x61, 0xa4, 0xe1, 0x3e, 0x00, 0x00, 0x00, 0x00, 0x8b, 0x6b, 0xab, 0x3e,
  0x52, 0x83, 0xfd, 0x3e, 0x20, 0x3b, 0x9f, 0xbe, 0x00, 0x00, 0x00, 0x00,
  0xe2, 0xfd, 0xff, 0xff, 0x04, 0x00, 0x00, 0x00, 0x04, 0x00, 0x00, 0x00,
  0xa1, 0xe6, 0x90, 0xbe, 0xf2, 0xfd, 0xff, 0xff, 0x04, 0x00, 0x00, 0x00,
  0x00, 0x02, 0x00, 0x00, 0xb8, 0xfb, 0x3f, 0xbe, 0xd0, 0x4e, 0x88, 0x3e,
  0xec, 0x5f, 0xee, 0xbe, 0x74, 0x0f, 0xff, 0x3e, 0xfe, 0x23, 0xd8, 0x3e,
  0x6b, 0x31, 0xec, 0x3c, 0x9c, 0x0c, 0x88, 0x3e, 0x13, 0x0d, 0x77, 0x3f,
  0x10, 0xab, 0x6f, 0xbf, 0xac, 0xe1, 0xa1, 0x3f, 0x3f, 0x7e, 0x16, 0x40,
  0xa0, 0x87, 0xaa, 0xbe, 0x26, 0x15, 0xae, 0xbe, 0x42, 0x12, 0xf5, 0xbe,
  0x89, 0xeb, 0x37, 0x3f, 0x83, 0x87, 0x5b, 0x3e, 0xb8, 0xdb, 0x32, 0x3f,
  0xe0, 0x29, 0x3e, 0xbd, 0xce, 0x7b, 0xdb, 0x3f, 0x08, 0x2c, 0x62, 0x3e,
  0x81, 0x30, 0x5b, 0x3e, 0x88, 0x52, 0x72, 0x3f, 0x76, 0x9f, 0xb5, 0xbc,
  0x4c, 0xdb, 0x8f, 0xbf, 0x43, 0x2c, 0x37, 0x3f, 0x78, 0x49, 0x3b, 0xbf,
  0xb2, 0x83, 0x1b, 0xc0, 0x60, 0xb3, 0x0f, 0xbd, 0x74, 0xff, 0xa5, 0x3e,
  0x52, 0xe6, 0xe3, 0x3e, 0xf9, 0x6a, 0xba, 0xbe, 0x85, 0x28, 0xb0, 0xbe,
  0xed, 0x20, 0x42, 0x3f, 0xe0, 0xce, 0xe1, 0xbe, 0x78, 0x70, 0xa4, 0x3f,
  0x78, 0xb7, 0xd2, 0x3e, 0x29, 0x4a, 0x0c, 0x3f, 0x52, 0x1b, 0x52, 0x3f,
  0xc1, 0x24, 0x1b, 0xbe, 0x7e, 0xd1, 0x28, 0xbf, 0x81, 0xad, 0xc5, 0x3e,
  0xd8, 0x51, 0x8d, 0xbf, 0x10, 0xae, 0x13, 0xc0, 0x38, 0x6f, 0x28, 0xbe,
  0xa8, 0x33, 0x8b, 0x3e, 0x8d, 0x04, 0x1d, 0x3f, 0xb3, 0x43, 0xbc, 0xbd,
  0x9e, 0x0a, 0xf1, 0xbe, 0x94, 0x6f, 0xae, 0xbe, 0x24, 0xdf, 0xaa, 0xbe,
  0x08, 0xb5, 0xeb, 0xbe, 0x38, 0x5f, 0x94, 0xbe, 0xe4, 0x10, 0xdc, 0xbe,
  0x38, 0xb0, 0x1e, 0xbe, 0x30, 0xef, 0xff, 0x3d, 0x68, 0xd9, 0x18, 0xbe,
  0xbc, 0x81, 0xc7, 0x3e, 0x60, 0x3a, 0x4e, 0xbd, 0x50, 0x9f, 0x49, 0xbe,
  0xc8, 0x7c, 0xf0, 0x3e, 0x98, 0x19, 0xfb, 0xbe, 0x80, 0x63, 0x65, 0x3c,
  0x5c, 0x50, 0x8f, 0xbe, 0xd0, 0xcd, 0xe8, 0xbe, 0xff, 0xc3, 0x36, 0x3f,
  0xc0, 0x5f, 0x96, 0xbc, 0x0c, 0x1d, 0xc7, 0x3f, 0xb4, 0x8e, 0xc0, 0xbe,
  0xfe, 0x88, 0xb6, 0x3e, 0x4a, 0x62, 0x4a, 0x3e, 0x64, 0xf2, 0xd3, 0x3d,
  0x69, 0xa7, 0xaf, 0xbf, 0xb6, 0x2b, 0x5c, 0x3f, 0x8d, 0x7a, 0x58, 0xbf,
  0x31, 0x8a, 0x03, 0xc0, 0xc0, 0xee, 0xdd, 0x3d, 0x88, 0x48, 0x26, 0x3f,
  0x33, 0xc7, 0xff, 0x3e, 0x91, 0x75, 0x98, 0x3e, 0x70, 0x7c, 0x5a, 0xbf,
  0x72, 0x43, 0x54, 0x3f, 0xf0, 0x87, 0xf2, 0x3d, 0x0b, 0x3a, 0x94, 0x3f,
  0xac, 0xbe, 0xda, 0xbe, 0x7e, 0x29, 0x49, 0x3f, 0x92, 0x1e, 0xc9, 0x3e,
  0x6e, 0xe5, 0x78, 0xbe, 0x74, 0x66, 0x48, 0xbf, 0x83, 0xc1, 0xd9, 0x3d,
  0x3d, 0xea, 0xd9, 0xbe, 0x4f, 0xa0, 0x1f, 0xc0, 0x00, 0xe8, 0x49, 0xbc,
  0xe0, 0x9f, 0x4e, 0x3f, 0x70, 0x07, 0x68, 0x3f, 0x6d, 0xec, 0x66, 0x3c,
  0x27, 0xd0, 0x8c, 0xbf, 0xf4, 0xf9, 0xca, 0x3e, 0x88, 0x54, 0xae, 0xbe,
  0xd1, 0x79, 0xc1, 0xc0, 0xe0, 0xd1, 0x55, 0x3d, 0xf6, 0xed, 0x8f, 0xbf,
  0xd6, 0x6e, 0xaf, 0xbf, 0x40, 0xd8, 0xc6, 0x3e, 0x18, 0x71, 0x66, 0x3f,
  0x73, 0x34, 0x91, 0x3e, 0xcb, 0x5a, 0x97, 0x3f, 0xae, 0xf6, 0x2a, 0x3e,
  0x40, 0x72, 0xce, 0xbc, 0xa6, 0x90, 0xc7, 0x3e, 0x21, 0xfe, 0xa3, 0x3e,
  0x7e, 0xbc, 0x74, 0x3f, 0x74, 0x55, 0x8b, 0x3f, 0x20, 0x6b, 0x71, 0xbd,
  0x20, 0xe5, 0x0a, 0x3e, 0xa0, 0x9b, 0x8a, 0xbe, 0x00, 0x90, 0x94, 0x3a,
  0xb0, 0x43, 0x79, 0xbe, 0x40, 0x47, 0xbf, 0xbe, 0x4c, 0xcb, 0xe0, 0xbe,
  0x84, 0x33, 0xd4, 0xbe, 0x80, 0x31, 0x0f, 0xbe, 0xd8, 0x31, 0x31, 0xbe,
  0xc8, 0x58, 0x76, 0xbe, 0x58, 0x8d, 0xed, 0xbe, 0xb4, 0xac, 0xfe, 0xbe,
  0x90, 0xca, 0x89, 0xbe, 0xd0, 0xa4, 0x39, 0xbe, 0xd4, 0x7b, 0xf8, 0xbe,
  0x00, 0x00, 0x06, 0x00, 0x08, 0x00, 0x04, 0x00, 0x06, 0x00, 0x00, 0x00,
  0x04, 0x00, 0x00, 0x00, 0x20, 0x00, 0x00, 0x00, 0xe8, 0x11, 0x12, 0x40,
  0x19, 0xee, 0xcf, 0xbf, 0x48, 0xf5, 0xd7, 0xbf, 0x48, 0xce, 0x6c, 0x3e,
  0x0c, 0x92, 0xe9, 0xbf, 0x1b, 0xad, 0xac, 0xbf, 0xd9, 0xb0, 0x38, 0x40,
  0xc8, 0x70, 0x2d, 0x3f, 0x88, 0xfa, 0xff, 0xff, 0x8c, 0xfa, 0xff, 0xff,
  0x0f, 0x00, 0x00, 0x00, 0x4d, 0x4c, 0x49, 0x52, 0x20, 0x43, 0x6f, 0x6e,
  0x76, 0x65, 0x72, 0x74, 0x65, 0x64, 0x2e, 0x00, 0x01, 0x00, 0x00, 0x00,
  0x14, 0x00, 0x00, 0x00, 0x00, 0x00, 0x0e, 0x00, 0x18, 0x00, 0x14, 0x00,
  0x10, 0x00, 0x0c, 0x00, 0x08, 0x00, 0x04, 0x00, 0x0e, 0x00, 0x00, 0x00,
  0x14, 0x00, 0x00, 0x00, 0x1c, 0x00, 0x00, 0x00, 0x08, 0x01, 0x00, 0x00,
  0x0c, 0x01, 0x00, 0x00, 0x10, 0x01, 0x00, 0x00, 0x04, 0x00, 0x00, 0x00,
  0x6d, 0x61, 0x69, 0x6e, 0x00, 0x00, 0x00, 0x00, 0x04, 0x00, 0x00, 0x00,
  0xb0, 0x00, 0x00, 0x00, 0x68, 0x00, 0x00, 0x00, 0x34, 0x00, 0x00, 0x00,
  0x10, 0x00, 0x00, 0x00, 0x00, 0x00, 0x0a, 0x00, 0x10, 0x00, 0x0c, 0x00,
  0x08, 0x00, 0x04, 0x00, 0x0a, 0x00, 0x00, 0x00, 0x0c, 0x00, 0x00, 0x00,
  0x10, 0x00, 0x00, 0x00, 0x01, 0x00, 0x00, 0x00, 0x01, 0x00, 0x00, 0x00,
  0x0a, 0x00, 0x00, 0x00, 0x01, 0x00, 0x00, 0x00, 0x09, 0x00, 0x00, 0x00,
  0x9a, 0xff, 0xff, 0xff, 0x10, 0x00, 0x00, 0x00, 0x00, 0x00, 0x00, 0x08,
  0x0c, 0x00, 0x00, 0x00, 0x10, 0x00, 0x00, 0x00, 0x34, 0xfb, 0xff, 0xff,
  0x01, 0x00, 0x00, 0x00, 0x09, 0x00, 0x00, 0x00, 0x03, 0x00, 0x00, 0x00,
  0x08, 0x00, 0x00, 0x00, 0x01, 0x00, 0x00, 0x00, 0x03, 0x00, 0x00, 0x00,
  0xca, 0xff, 0xff, 0xff, 0x10, 0x00, 0x00, 0x00, 0x00, 0x00, 0x00, 0x08,
  0x10, 0x00, 0x00, 0x00, 0x14, 0x00, 0x00, 0x00, 0xba, 0xff, 0xff, 0xff,
  0x00, 0x00, 0x00, 0x01, 0x01, 0x00, 0x00, 0x00, 0x08, 0x00, 0x00, 0x00,
  0x03, 0x00, 0x00, 0x00, 0x07, 0x00, 0x00, 0x00, 0x02, 0x00, 0x00, 0x00,
  0x04, 0x00, 0x00, 0x00, 0x00, 0x00, 0x0e, 0x00, 0x16, 0x00, 0x00, 0x00,
  0x10, 0x00, 0x0c, 0x00, 0x0b, 0x00, 0x04, 0x00, 0x0e, 0x00, 0x00, 0x00,
  0x18, 0x00, 0x00, 0x00, 0x00, 0x00, 0x00, 0x08, 0x18, 0x00, 0x00, 0x00,
  0x1c, 0x00, 0x00, 0x00, 0x00, 0x00, 0x06, 0x00, 0x08, 0x00, 0x07, 0x00,
  0x06, 0x00, 0x00, 0x00, 0x00, 0x00, 0x00, 0x01, 0x01, 0x00, 0x00, 0x00,
  0x07, 0x00, 0x00, 0x00, 0x03, 0x00, 0x00, 0x00, 0x00, 0x00, 0x00, 0x00,
  0x06, 0x00, 0x00, 0x00, 0x05, 0x00, 0x00, 0x00, 0x01, 0x00, 0x00, 0x00,
  0x0a, 0x00, 0x00, 0x00, 0x01, 0x00, 0x00, 0x00, 0x00, 0x00, 0x00, 0x00,
  0x0b, 0x00, 0x00, 0x00, 0xf4, 0x03, 0x00, 0x00, 0x9c, 0x03, 0x00, 0x00,
  0x44, 0x03, 0x00, 0x00, 0x08, 0x03, 0x00, 0x00, 0xcc, 0x02, 0x00, 0x00,
  0x70, 0x02, 0x00, 0x00, 0x20, 0x02, 0x00, 0x00, 0x80, 0x01, 0x00, 0x00,
  0xe0, 0x00, 0x00, 0x00, 0x60, 0x00, 0x00, 0x00, 0x04, 0x00, 0x00, 0x00,
  0x4e, 0xfc, 0xff, 0xff, 0x00, 0x00, 0x00, 0x01, 0x14, 0x00, 0x00, 0x00,
  0x1c, 0x00, 0x00, 0x00, 0x1c, 0x00, 0x00, 0x00, 0x0b, 0x00, 0x00, 0x00,
  0x34, 0x00, 0x00, 0x00, 0x02, 0x00, 0x00, 0x00, 0xff, 0xff, 0xff, 0xff,
  0x01, 0x00, 0x00, 0x00, 0x38, 0xfc, 0xff, 0xff, 0x1b, 0x00, 0x00, 0x00,
  0x53, 0x74, 0x61, 0x74, 0x65, 0x66, 0x75, 0x6c, 0x50, 0x61, 0x72, 0x74,
  0x69, 0x74, 0x69, 0x6f, 0x6e, 0x65, 0x64, 0x43, 0x61, 0x6c, 0x6c, 0x5f,
  0x31, 0x3a, 0x30, 0x00, 0x02, 0x00, 0x00, 0x00, 0x01, 0x00, 0x00, 0x00,
  0x01, 0x00, 0x00, 0x00, 0xa6, 0xfc, 0xff, 0xff, 0x00, 0x00, 0x00, 0x01,
  0x14, 0x00, 0x00, 0x00, 0x1c, 0x00, 0x00, 0x00, 0x1c, 0x00, 0x00, 0x00,
  0x0a, 0x00, 0x00, 0x00, 0x58, 0x00, 0x00, 0x00, 0x02, 0x00, 0x00, 0x00,
  0xff, 0xff, 0xff, 0xff, 0x01, 0x00, 0x00, 0x00, 0x90, 0xfc, 0xff, 0xff,
  0x3c, 0x00, 0x00, 0x00, 0x73, 0x65, 0x71, 0x75, 0x65, 0x6e, 0x74, 0x69,
  0x61, 0x6c, 0x5f, 0x31, 0x5f, 0x31, 0x2f, 0x64, 0x65, 0x6e, 0x73, 0x65,
  0x5f, 0x33, 0x5f, 0x31, 0x2f, 0x4d, 0x61, 0x74, 0x4d, 0x75, 0x6c, 0x3b,
  0x73, 0x65, 0x71, 0x75, 0x65, 0x6e, 0x74, 0x69, 0x61, 0x6c, 0x5f, 0x31,
  0x5f, 0x31, 0x2f, 0x64, 0x65, 0x6e, 0x73, 0x65, 0x5f, 0x33, 0x5f, 0x31,
  0x2f, 0x41, 0x64, 0x64, 0x00, 0x00, 0x00, 0x00, 0x02, 0x00, 0x00, 0x00,
  0x01, 0x00, 0x00, 0x00, 0x01, 0x00, 0x00, 0x00, 0x22, 0xfd, 0xff, 0xff,
  0x00, 0x00, 0x00, 0x01, 0x14, 0x00, 0x00, 0x00, 0x1c, 0x00, 0x00, 0x00,
  0x1c, 0x00, 0x00, 0x00, 0x09, 0x00, 0x00, 0x00, 0x78, 0x00, 0x00, 0x00,
  0x02, 0x00, 0x00, 0x00, 0xff, 0xff, 0xff, 0xff, 0x08, 0x00, 0x00, 0x00,
  0x0c, 0xfd, 0xff, 0xff, 0x5e, 0x00, 0x00, 0x00, 0x73, 0x65, 0x71, 0x75,
  0x65, 0x6e, 0x74, 0x69, 0x61, 0x6c, 0x5f, 0x31, 0x5f, 0x31, 0x2f, 0x64,
  0x65, 0x6e, 0x73, 0x65, 0x5f, 0x32, 0x5f, 0x31, 0x2f, 0x4d, 0x61, 0x74,
  0x4d, 0x75, 0x6c, 0x3b, 0x73, 0x65, 0x71, 0x75, 0x65, 0x6e, 0x74, 0x69,
  0x61, 0x6c, 0x5f, 0x31, 0x5f, 0x31, 0x2f, 0x64, 0x65, 0x6e, 0x73, 0x65,
  0x5f, 0x32, 0x5f, 0x31, 0x2f, 0x52, 0x65, 0x6c, 0x75, 0x3b, 0x73, 0x65,
  0x71, 0x75, 0x65, 0x6e, 0x74, 0x69, 0x61, 0x6c, 0x5f, 0x31, 0x5f, 0x31,
  0x2f, 0x64, 0x65, 0x6e, 0x73, 0x65, 0x5f, 0x32, 0x5f, 0x31, 0x2f, 0x42,
  0x69, 0x61, 0x73, 0x41, 0x64, 0x64, 0x00, 0x00, 0x02, 0x00, 0x00, 0x00,
  0x01, 0x00, 0x00, 0x00, 0x08, 0x00, 0x00, 0x00, 0xbe, 0xfd, 0xff, 0xff,
  0x00, 0x00, 0x00, 0x01, 0x14, 0x00, 0x00, 0x00, 0x1c, 0x00, 0x00, 0x00,
  0x1c, 0x00, 0x00, 0x00, 0x08, 0x00, 0x00, 0x00, 0x78, 0x00, 0x00, 0x00,
  0x02, 0x00, 0x00, 0x00, 0xff, 0xff, 0xff, 0xff, 0x10, 0x00, 0x00, 0x00,
  0xa8, 0xfd, 0xff, 0xff, 0x5e, 0x00, 0x00, 0x00, 0x73, 0x65, 0x71, 0x75,
  0x65, 0x6e, 0x74, 0x69, 0x61, 0x6c, 0x5f, 0x31, 0x5f, 0x31, 0x2f, 0x64,
  0x65, 0x6e, 0x73, 0x65, 0x5f, 0x31, 0x5f, 0x31, 0x2f, 0x4d, 0x61, 0x74,
  0x4d, 0x75, 0x6c, 0x3b, 0x73, 0x65, 0x71, 0x75, 0x65, 0x6e, 0x74, 0x69,
  0x61, 0x6c, 0x5f, 0x31, 0x5f, 0x31, 0x2f, 0x64, 0x65, 0x6e, 0x73, 0x65,
  0x5f, 0x31, 0x5f, 0x31, 0x2f, 0x52, 0x65, 0x6c, 0x75, 0x3b, 0x73, 0x65,
  0x71, 0x75, 0x65, 0x6e, 0x74, 0x69, 0x61, 0x6c, 0x5f, 0x31, 0x5f, 0x31,
  0x2f, 0x64, 0x65, 0x6e, 0x73, 0x65, 0x5f, 0x31, 0x5f, 0x31, 0x2f, 0x42,
  0x69, 0x61, 0x73, 0x41, 0x64, 0x64, 0x00, 0x00, 0x02, 0x00, 0x00, 0x00,
  0x01, 0x00, 0x00, 0x00, 0x10, 0x00, 0x00, 0x00, 0xae, 0xfe, 0xff, 0xff,
  0x00, 0x00, 0x00, 0x01, 0x10, 0x00, 0x00, 0x00, 0x10, 0x00, 0x00, 0x00,
  0x07, 0x00, 0x00, 0x00, 0x2c, 0x00, 0x00, 0x00, 0x34, 0xfe, 0xff, 0xff,
  0x1f, 0x00, 0x00, 0x00, 0x73, 0x65, 0x71, 0x75, 0x65, 0x6e, 0x74, 0x69,
  0x61, 0x6c, 0x5f, 0x31, 0x5f, 0x31, 0x2f, 0x64, 0x65, 0x6e, 0x73, 0x65,
  0x5f, 0x31, 0x5f, 0x31, 0x2f, 0x4d, 0x61, 0x74, 0x4d, 0x75, 0x6c, 0x00,
  0x02, 0x00, 0x00, 0x00, 0x10, 0x00, 0x00, 0x00, 0x03, 0x00, 0x00, 0x00,
  0xfa, 0xfe, 0xff, 0xff, 0x00, 0x00, 0x00, 0x01, 0x10, 0x00, 0x00, 0x00,
  0x10, 0x00, 0x00, 0x00, 0x06, 0x00, 0x00, 0x00, 0x3c, 0x00, 0x00, 0x00,
  0x80, 0xfe, 0xff, 0xff, 0x2f, 0x00, 0x00, 0x00, 0x73, 0x65, 0x71, 0x75,
  0x65, 0x6e, 0x74, 0x69, 0x61, 0x6c, 0x5f, 0x31, 0x5f, 0x31, 0x2f, 0x64,
  0x65, 0x6e, 0x73, 0x65, 0x5f, 0x31, 0x5f, 0x31, 0x2f, 0x42, 0x69, 0x61,
  0x73, 0x41, 0x64, 0x64, 0x2f, 0x52, 0x65, 0x61, 0x64, 0x56, 0x61, 0x72,
  0x69, 0x61, 0x62, 0x6c, 0x65, 0x4f, 0x70, 0x00, 0x01, 0x00, 0x00, 0x00,
  0x10, 0x00, 0x00, 0x00, 0x52, 0xff, 0xff, 0xff, 0x00, 0x00, 0x00, 0x01,
  0x10, 0x00, 0x00, 0x00, 0x10, 0x00, 0x00, 0x00, 0x05, 0x00, 0x00, 0x00,
  0x1c, 0x00, 0x00, 0x00, 0xd8, 0xfe, 0xff, 0xff, 0x0f, 0x00, 0x00, 0x00,
  0x61, 0x72, 0x69, 0x74, 0x68, 0x2e, 0x63, 0x6f, 0x6e, 0x73, 0x74, 0x61,
  0x6e, 0x74, 0x33, 0x00, 0x01, 0x00, 0x00, 0x00, 0x08, 0x00, 0x00, 0x00,
  0x8a, 0xff, 0xff, 0xff, 0x00, 0x00, 0x00, 0x01, 0x10, 0x00, 0x00, 0x00,
  0x10, 0x00, 0x00, 0x00, 0x04, 0x00, 0x00, 0x00, 0x1c, 0x00, 0x00, 0x00,
  0x10, 0xff, 0xff, 0xff, 0x0f, 0x00, 0x00, 0x00, 0x61, 0x72, 0x69, 0x74,
  0x68, 0x2e, 0x63, 0x6f, 0x6e, 0x73, 0x74, 0x61, 0x6e, 0x74, 0x32, 0x00,
  0x01, 0x00, 0x00, 0x00, 0x01, 0x00, 0x00, 0x00, 0xc2, 0xff, 0xff, 0xff,
  0x00, 0x00, 0x00, 0x01, 0x10, 0x00, 0x00, 0x00, 0x10, 0x00, 0x00, 0x00,
  0x03, 0x00, 0x00, 0x00, 0x1c, 0x00, 0x00, 0x00, 0x48, 0xff, 0xff, 0xff,
  0x0f, 0x00, 0x00, 0x00, 0x61, 0x72, 0x69, 0x74, 0x68, 0x2e, 0x63, 0x6f,
  0x6e, 0x73, 0x74, 0x61, 0x6e, 0x74, 0x31, 0x00, 0x02, 0x00, 0x00, 0x00,
  0x08, 0x00, 0x00, 0x00, 0x10, 0x00, 0x00, 0x00, 0x00, 0x00, 0x16, 0x00,
  0x18, 0x00, 0x14, 0x00, 0x00, 0x00, 0x10, 0x00, 0x0c, 0x00, 0x08, 0x00,
  0x00, 0x00, 0x00, 0x00, 0x00, 0x00, 0x07, 0x00, 0x16, 0x00, 0x00, 0x00,
  0x00, 0x00, 0x00, 0x01, 0x10, 0x00, 0x00, 0x00, 0x10, 0x00, 0x00, 0x00,
  0x02, 0x00, 0x00, 0x00, 0x1c, 0x00, 0x00, 0x00, 0x9c, 0xff, 0xff, 0xff,
  0x0e, 0x00, 0x00, 0x00, 0x61, 0x72, 0x69, 0x74, 0x68, 0x2e, 0x63, 0x6f,
  0x6e, 0x73, 0x74, 0x61, 0x6e, 0x74, 0x00, 0x00, 0x02, 0x00, 0x00, 0x00,
  0x01, 0x00, 0x00, 0x00, 0x08, 0x00, 0x00, 0x00, 0x00, 0x00, 0x16, 0x00,
  0x1c, 0x00, 0x18, 0x00, 0x00, 0x00, 0x14, 0x00, 0x10, 0x00, 0x0c, 0x00,
  0x00, 0x00, 0x00, 0x00, 0x08, 0x00, 0x07, 0x00, 0x16, 0x00, 0x00, 0x00,
  0x00, 0x00, 0x00, 0x01, 0x14, 0x00, 0x00, 0x00, 0x20, 0x00, 0x00, 0x00,
  0x20, 0x00, 0x00, 0x00, 0x01, 0x00, 0x00, 0x00, 0x40, 0x00, 0x00, 0x00,
  0x02, 0x00, 0x00, 0x00, 0xff, 0xff, 0xff, 0xff, 0x03, 0x00, 0x00, 0x00,
  0x04, 0x00, 0x04, 0x00, 0x04, 0x00, 0x00, 0x00, 0x20, 0x00, 0x00, 0x00,
  0x73, 0x65, 0x72, 0x76, 0x69, 0x6e, 0x67, 0x5f, 0x64, 0x65, 0x66, 0x61,
  0x75, 0x6c, 0x74, 0x5f, 0x6b, 0x65, 0x72, 0x61, 0x73, 0x5f, 0x74, 0x65,
  0x6e, 0x73, 0x6f, 0x72, 0x5f, 0x35, 0x3a, 0x30, 0x00, 0x00, 0x00, 0x00,
  0x02, 0x00, 0x00, 0x00, 0x01, 0x00, 0x00, 0x00, 0x03, 0x00, 0x00, 0x00,
  0x02, 0x00, 0x00, 0x00, 0x20, 0x00, 0x00, 0x00, 0x04, 0x00, 0x00, 0x00,
  0xf4, 0xff, 0xff, 0xff, 0x0e, 0x00, 0x00, 0x00, 0x00, 0x00, 0x00, 0x0e,
  0x0c, 0x00, 0x0c, 0x00, 0x0b, 0x00, 0x00, 0x00, 0x00, 0x00, 0x04, 0x00,
  0x0c, 0x00, 0x00, 0x00, 0x09, 0x00, 0x00, 0x00, 0x00, 0x00, 0x00, 0x09,
};
const unsigned int anomaly_model_tflite_len = 2904;
